unsigned char g_model[] = {
  0x20, 0x00, 0x00, 0x00, 0x54, 0x46, 0x4c, 0x33, 0x00, 0x00, 0x00, 0x00,
  0x14, 0x00, 0x20, 0x00, 0x1c, 0x00, 0x18, 0x00, 0x14, 0x00, 0x10, 0x00,
  0x0c, 0x00, 0x00, 0x00, 0x08, 0x00, 0x04, 0x00, 0x14, 0x00, 0x00, 0x00,
  0x1c, 0x00, 0x00, 0x00, 0x94, 0x00, 0x00, 0x00, 0xec, 0x00, 0x00, 0x00,
  0x40, 0x0e, 0x00, 0x00, 0x50, 0x0e, 0x00, 0x00, 0x8c, 0x16, 0x00, 0x00,
  0x03, 0x00, 0x00, 0x00, 0x01, 0x00, 0x00, 0x00, 0x10, 0x00, 0x00, 0x00,
  0x00, 0x00, 0x0a, 0x00, 0x10, 0x00, 0x0c, 0x00, 0x08, 0x00, 0x04, 0x00,
  0x0a, 0x00, 0x00, 0x00, 0x0c, 0x00, 0x00, 0x00, 0x1c, 0x00, 0x00, 0x00,
  0x38, 0x00, 0x00, 0x00, 0x0f, 0x00, 0x00, 0x00, 0x73, 0x65, 0x72, 0x76,
  0x69, 0x6e, 0x67, 0x5f, 0x64, 0x65, 0x66, 0x61, 0x75, 0x6c, 0x74, 0x00,
  0x01, 0x00, 0x00, 0x00, 0x04, 0x00, 0x00, 0x00, 0x94, 0xff, 0xff, 0xff,
  0x0c, 0x00, 0x00, 0x00, 0x04, 0x00, 0x00, 0x00, 0x07, 0x00, 0x00, 0x00,
  0x64, 0x65, 0x6e, 0x73, 0x65, 0x5f, 0x35, 0x00, 0x01, 0x00, 0x00, 0x00,
  0x04, 0x00, 0x00, 0x00, 0x4e, 0xf2, 0xff, 0xff, 0x04, 0x00, 0x00, 0x00,
  0x0d, 0x00, 0x00, 0x00, 0x64, 0x65, 0x6e, 0x73, 0x65, 0x5f, 0x32, 0x5f,
  0x69, 0x6e, 0x70, 0x75, 0x74, 0x00, 0x00, 0x00, 0x02, 0x00, 0x00, 0x00,
  0x34, 0x00, 0x00, 0x00, 0x04, 0x00, 0x00, 0x00, 0xdc, 0xff, 0xff, 0xff,
  0x0f, 0x00, 0x00, 0x00, 0x04, 0x00, 0x00, 0x00, 0x13, 0x00, 0x00, 0x00,
  0x43, 0x4f, 0x4e, 0x56, 0x45, 0x52, 0x53, 0x49, 0x4f, 0x4e, 0x5f, 0x4d,
  0x45, 0x54, 0x41, 0x44, 0x41, 0x54, 0x41, 0x00, 0x08, 0x00, 0x0c, 0x00,
  0x08, 0x00, 0x04, 0x00, 0x08, 0x00, 0x00, 0x00, 0x0e, 0x00, 0x00, 0x00,
  0x04, 0x00, 0x00, 0x00, 0x13, 0x00, 0x00, 0x00, 0x6d, 0x69, 0x6e, 0x5f,
  0x72, 0x75, 0x6e, 0x74, 0x69, 0x6d, 0x65, 0x5f, 0x76, 0x65, 0x72, 0x73,
  0x69, 0x6f, 0x6e, 0x00, 0x10, 0x00, 0x00, 0x00, 0x50, 0x0d, 0x00, 0x00,
  0x48, 0x0d, 0x00, 0x00, 0x34, 0x0d, 0x00, 0x00, 0x0c, 0x0d, 0x00, 0x00,
  0xbc, 0x0c, 0x00, 0x00, 0xac, 0x0a, 0x00, 0x00, 0x1c, 0x0a, 0x00, 0x00,
  0x0c, 0x02, 0x00, 0x00, 0xfc, 0x00, 0x00, 0x00, 0xac, 0x00, 0x00, 0x00,
  0xa4, 0x00, 0x00, 0x00, 0x9c, 0x00, 0x00, 0x00, 0x94, 0x00, 0x00, 0x00,
  0x8c, 0x00, 0x00, 0x00, 0x6c, 0x00, 0x00, 0x00, 0x04, 0x00, 0x00, 0x00,
  0x0a, 0xf3, 0xff, 0xff, 0x04, 0x00, 0x00, 0x00, 0x58, 0x00, 0x00, 0x00,
  0x0c, 0x00, 0x00, 0x00, 0x08, 0x00, 0x0e, 0x00, 0x08, 0x00, 0x04, 0x00,
  0x08, 0x00, 0x00, 0x00, 0x10, 0x00, 0x00, 0x00, 0x28, 0x00, 0x00, 0x00,
  0x00, 0x00, 0x06, 0x00, 0x08, 0x00, 0x04, 0x00, 0x06, 0x00, 0x00, 0x00,
  0x04, 0x00, 0x00, 0x00, 0x01, 0x00, 0x00, 0x00, 0xeb, 0x03, 0x00, 0x00,
  0x00, 0x00, 0x0a, 0x00, 0x10, 0x00, 0x0c, 0x00, 0x08, 0x00, 0x04, 0x00,
  0x0a, 0x00, 0x00, 0x00, 0x01, 0x00, 0x00, 0x00, 0x02, 0x00, 0x00, 0x00,
  0x04, 0x00, 0x00, 0x00, 0x06, 0x00, 0x00, 0x00, 0x32, 0x2e, 0x31, 0x35,
  0x2e, 0x30, 0x00, 0x00, 0x6e, 0xf3, 0xff, 0xff, 0x04, 0x00, 0x00, 0x00,
  0x10, 0x00, 0x00, 0x00, 0x31, 0x2e, 0x31, 0x34, 0x2e, 0x30, 0x00, 0x00,
  0x00, 0x00, 0x00, 0x00, 0x00, 0x00, 0x00, 0x00, 0xf4, 0xf2, 0xff, 0xff,
  0xf8, 0xf2, 0xff, 0xff, 0xfc, 0xf2, 0xff, 0xff, 0x00, 0xf3, 0xff, 0xff,
  0x9a, 0xf3, 0xff, 0xff, 0x04, 0x00, 0x00, 0x00, 0x40, 0x00, 0x00, 0x00,
  0x34, 0x21, 0x69, 0xc2, 0x1a, 0x6c, 0xfd, 0xb4, 0x96, 0xed, 0xcc, 0xfe,
  0xb0, 0x75, 0x2e, 0x5a, 0x20, 0x58, 0xcb, 0xc0, 0x35, 0x53, 0x4e, 0xf1,
  0xfa, 0x9d, 0xdb, 0xa4, 0x77, 0xd7, 0xd4, 0x32, 0x28, 0x49, 0xe0, 0x02,
  0xc2, 0x7f, 0x4c, 0x67, 0xe7, 0xd5, 0xac, 0x72, 0x5c, 0xe3, 0x8b, 0x40,
  0x69, 0x8b, 0x2e, 0x1c, 0xdf, 0xae, 0x5c, 0xab, 0xf3, 0xdb, 0xf9, 0x22,
  0x91, 0x55, 0xc7, 0x50, 0xe6, 0xf3, 0xff, 0xff, 0x04, 0x00, 0x00, 0x00,
  0x00, 0x01, 0x00, 0x00, 0xbb, 0xf5, 0xff, 0xff, 0x77, 0xf6, 0xff, 0xff,
  0x1a, 0xeb, 0xff, 0xff, 0x00, 0x00, 0x00, 0x00, 0xf5, 0xff, 0xff, 0xff,
  0x1d, 0x01, 0x00, 0x00, 0x29, 0xff, 0xff, 0xff, 0x00, 0x00, 0x00, 0x00,
  0x00, 0x00, 0x00, 0x00, 0x00, 0x00, 0x00, 0x00, 0x00, 0x00, 0x00, 0x00,
  0x00, 0x00, 0x00, 0x00, 0x00, 0x00, 0x00, 0x00, 0x96, 0xf4, 0xff, 0xff,
  0xb6, 0xed, 0xff, 0xff, 0x56, 0x0e, 0x00, 0x00, 0x27, 0x04, 0x00, 0x00,
  0x9f, 0xf1, 0xff, 0xff, 0x00, 0x00, 0x00, 0x00, 0x00, 0x00, 0x00, 0x00,
  0xd0, 0xfe, 0xff, 0xff, 0xe6, 0x03, 0x00, 0x00, 0x9b, 0x02, 0x00, 0x00,
  0x00, 0x00, 0x00, 0x00, 0x00, 0x00, 0x00, 0x00, 0x00, 0x00, 0x00, 0x00,
  0x00, 0x00, 0x00, 0x00, 0x00, 0x00, 0x00, 0x00, 0x0d, 0x06, 0x00, 0x00,
  0x00, 0x00, 0x00, 0x00, 0x00, 0x00, 0x00, 0x00, 0xe0, 0x03, 0x00, 0x00,
  0x64, 0xf1, 0xff, 0xff, 0x8a, 0x07, 0x00, 0x00, 0x00, 0x00, 0x00, 0x00,
  0xc4, 0x0f, 0x00, 0x00, 0x00, 0x00, 0x00, 0x00, 0x77, 0xec, 0xff, 0xff,
  0xd3, 0xe6, 0xff, 0xff, 0x4c, 0xf1, 0xff, 0xff, 0x00, 0x00, 0x00, 0x00,
  0x00, 0x00, 0x00, 0x00, 0x00, 0x00, 0x00, 0x00, 0xa1, 0x03, 0x00, 0x00,
  0x33, 0xee, 0xff, 0xff, 0x00, 0x00, 0x00, 0x00, 0x00, 0x00, 0x00, 0x00,
  0x00, 0xf0, 0xff, 0xff, 0x18, 0x06, 0x00, 0x00, 0x00, 0x00, 0x00, 0x00,
  0xf6, 0x07, 0x00, 0x00, 0xb5, 0x1c, 0x00, 0x00, 0x00, 0x00, 0x00, 0x00,
  0x00, 0x00, 0x00, 0x00, 0xe5, 0xff, 0xff, 0xff, 0x00, 0x00, 0x00, 0x00,
  0x00, 0x00, 0x00, 0x00, 0x00, 0x00, 0x00, 0x00, 0x00, 0x00, 0x00, 0x00,
  0x35, 0xe4, 0xff, 0xff, 0x00, 0x00, 0x00, 0x00, 0xbd, 0x01, 0x00, 0x00,
  0x00, 0x00, 0x00, 0x00, 0x40, 0xf7, 0xff, 0xff, 0xf2, 0xf4, 0xff, 0xff,
  0x04, 0x00, 0x00, 0x00, 0x00, 0x08, 0x00, 0x00, 0xdf, 0x23, 0xd3, 0x10,
  0xdf, 0x1b, 0x23, 0xd8, 0xf4, 0x1a, 0x04, 0xf9, 0xdc, 0x2e, 0xe9, 0xcc,
  0xd1, 0xe1, 0xd3, 0x26, 0xe4, 0xde, 0xf5, 0xf1, 0x2c, 0x21, 0xf6, 0x00,
  0x26, 0x26, 0x13, 0xda, 0xe4, 0x01, 0x19, 0xfe, 0xf1, 0x2a, 0xef, 0xed,
  0xf1, 0xd0, 0xdc, 0xdb, 0xee, 0x12, 0x0f, 0xd4, 0xed, 0x1d, 0x26, 0x19,
  0x0d, 0xe2, 0xfa, 0x12, 0x02, 0xf4, 0x04, 0x03, 0x1e, 0x06, 0xda, 0xd8,
  0xe2, 0xf7, 0x2b, 0x30, 0x27, 0x02, 0x03, 0x2f, 0xea, 0xf4, 0x10, 0x15,
  0xe9, 0x30, 0xf8, 0xf1, 0x18, 0x01, 0xeb, 0xec, 0x0c, 0xdc, 0x0b, 0xd8,
  0xf5, 0xf3, 0x1d, 0xee, 0x20, 0xe5, 0xf4, 0x1c, 0x30, 0x10, 0x04, 0xc4,
  0xf8, 0x25, 0x17, 0xe4, 0xe5, 0x12, 0xfe, 0x2d, 0xf0, 0x1b, 0xeb, 0xf2,
  0x2b, 0xe6, 0x19, 0xef, 0x19, 0x2e, 0x0a, 0xed, 0x0e, 0x13, 0xd5, 0x26,
  0xec, 0x1c, 0xf3, 0xe0, 0x08, 0xf8, 0x0c, 0xe1, 0xdd, 0xe1, 0x1d, 0xec,
  0x0e, 0xf5, 0xd1, 0x08, 0x18, 0xdc, 0xf1, 0x24, 0xfb, 0x33, 0x2c, 0x01,
  0x08, 0x11, 0x37, 0xe1, 0x12, 0x17, 0xd7, 0x1b, 0x27, 0x21, 0x2a, 0x1b,
  0x25, 0xe8, 0x26, 0xe2, 0x14, 0xe5, 0xf6, 0x1c, 0x21, 0xea, 0xd5, 0xfd,
  0x14, 0x00, 0x1a, 0x06, 0xfb, 0x01, 0x35, 0x05, 0xef, 0x0f, 0x14, 0xe3,
  0x2d, 0xd8, 0xdd, 0xfa, 0xe9, 0x2c, 0xe8, 0x22, 0x2a, 0xf0, 0xf5, 0xfd,
  0x1f, 0x16, 0xe8, 0xe8, 0x07, 0xfc, 0x12, 0xe1, 0xd7, 0x2e, 0x1e, 0xf6,
  0xf3, 0xf6, 0xe2, 0xdf, 0xe5, 0xe6, 0xd4, 0x0c, 0x22, 0xdd, 0x23, 0x20,
  0xf5, 0xe7, 0xe8, 0x1e, 0x12, 0xce, 0x14, 0x15, 0x08, 0xdb, 0x29, 0x2c,
  0xdc, 0x10, 0xd1, 0x1d, 0xed, 0xe7, 0x22, 0xd6, 0xfe, 0xef, 0x08, 0x0b,
  0x27, 0x08, 0xec, 0xd5, 0x30, 0x23, 0xec, 0xdd, 0xfa, 0xd9, 0x31, 0x19,
  0x28, 0x08, 0xf6, 0x02, 0xec, 0xda, 0x27, 0x11, 0xf6, 0xd0, 0x29, 0x19,
  0xd8, 0x00, 0xe9, 0x14, 0xe2, 0x24, 0x30, 0x0a, 0xec, 0xfe, 0xe1, 0x1c,
  0x10, 0x0c, 0x0b, 0x08, 0xd2, 0xfb, 0xe5, 0x1e, 0x1d, 0xf0, 0xe6, 0xd8,
  0xcf, 0xd4, 0xe8, 0x21, 0x2a, 0xd4, 0xd5, 0xd0, 0x24, 0x06, 0x1a, 0x05,
  0xf9, 0x21, 0x0f, 0x15, 0xe6, 0x0c, 0x01, 0x15, 0xe0, 0x27, 0xe6, 0xf3,
  0xd1, 0xcf, 0xf2, 0xe0, 0x2b, 0xe9, 0xe4, 0xe2, 0x14, 0x02, 0x0d, 0xdc,
  0xf4, 0x0d, 0x07, 0xe6, 0xd4, 0x1d, 0x36, 0x33, 0xdf, 0x03, 0x27, 0x0a,
  0xf3, 0x0d, 0x04, 0x10, 0xf3, 0x0e, 0xfe, 0xda, 0xf0, 0x0b, 0xde, 0xd7,
  0x0a, 0xfe, 0xfb, 0x27, 0x24, 0x10, 0xfe, 0xd8, 0x28, 0xd6, 0xfc, 0x0c,
  0x07, 0xd6, 0x03, 0xf9, 0x22, 0x27, 0xd3, 0xd2, 0xdb, 0xe6, 0x20, 0xef,
  0x1d, 0x26, 0xe2, 0x20, 0xef, 0x12, 0xe0, 0xfa, 0x01, 0x82, 0x02, 0xeb,
  0x29, 0xdb, 0x0e, 0xe7, 0xde, 0xed, 0xdc, 0xea, 0x09, 0x1c, 0x9e, 0x37,
  0x36, 0x0b, 0x2d, 0x21, 0xe4, 0x0e, 0x18, 0x05, 0x2d, 0xf0, 0xdb, 0xe6,
  0x25, 0xf4, 0x2e, 0x13, 0xd8, 0x35, 0x13, 0x45, 0xf5, 0xe4, 0x9e, 0xed,
  0x26, 0xfb, 0xf8, 0x0f, 0xdd, 0xed, 0x28, 0xa5, 0x39, 0xe7, 0x09, 0xea,
  0xd9, 0xed, 0xd5, 0xd8, 0xff, 0x1e, 0x08, 0x85, 0x28, 0xf2, 0x0a, 0xdd,
  0x20, 0xee, 0xf3, 0x01, 0xeb, 0xe7, 0xf1, 0x09, 0x2f, 0xf9, 0x0d, 0xdf,
  0x02, 0x0b, 0x02, 0xf3, 0x16, 0x2f, 0x24, 0x07, 0xd6, 0xff, 0x33, 0xfc,
  0x1b, 0xf0, 0x11, 0x0e, 0xe3, 0x1e, 0x29, 0x14, 0xd5, 0x32, 0x0f, 0xdb,
  0xf4, 0x34, 0x2f, 0x11, 0x0c, 0xea, 0xfd, 0x18, 0x1f, 0x1f, 0xe6, 0xf1,
  0xf7, 0xd1, 0x14, 0xed, 0x04, 0xf0, 0xee, 0x0c, 0x27, 0x28, 0xd7, 0x00,
  0xd0, 0xff, 0x1b, 0xee, 0xfd, 0xc4, 0xf3, 0x20, 0xe3, 0xf9, 0x31, 0xd7,
  0x14, 0xdb, 0xe3, 0xd8, 0xf1, 0xfb, 0x92, 0xfb, 0x02, 0x10, 0x02, 0x30,
  0x0f, 0xe0, 0x12, 0x2e, 0x16, 0x27, 0x06, 0x24, 0xec, 0x05, 0x0b, 0x20,
  0xf4, 0x06, 0xfc, 0x12, 0xf2, 0xdc, 0x9e, 0xf6, 0x14, 0x1c, 0xfe, 0x25,
  0xd3, 0xda, 0x0a, 0xc9, 0x02, 0x06, 0x2e, 0x35, 0x25, 0x0e, 0x33, 0x10,
  0x06, 0x1c, 0x15, 0xfa, 0x22, 0x10, 0x08, 0xd6, 0x15, 0xdc, 0xdd, 0xf9,
  0x07, 0x27, 0x2a, 0x04, 0x19, 0x22, 0xdb, 0x03, 0x1f, 0x0b, 0x19, 0x04,
  0x1a, 0x24, 0x18, 0x1a, 0xfc, 0x0b, 0xd4, 0x06, 0x2c, 0xed, 0xef, 0x32,
  0xf6, 0x19, 0x03, 0x19, 0xf8, 0x0a, 0xd5, 0x00, 0xf0, 0xef, 0x24, 0x1c,
  0x27, 0xd1, 0xe7, 0xeb, 0xf6, 0x18, 0xd1, 0x04, 0x11, 0x28, 0xde, 0xcb,
  0x27, 0xe3, 0xfb, 0xd2, 0xec, 0x20, 0x25, 0xc8, 0x08, 0xff, 0x12, 0x26,
  0x13, 0xf5, 0x10, 0x2b, 0xec, 0x19, 0x26, 0xfd, 0x11, 0x12, 0xfc, 0x0a,
  0x08, 0xe7, 0x0a, 0xd9, 0xfc, 0xdc, 0xe6, 0x20, 0xee, 0x0f, 0x16, 0x15,
  0x1f, 0x0c, 0xf5, 0xd6, 0x0c, 0xf3, 0x29, 0x06, 0x04, 0x09, 0xf0, 0x0f,
  0xdf, 0x1f, 0x0a, 0xe3, 0xec, 0x00, 0xf4, 0xfc, 0x2f, 0xd1, 0xf3, 0xdd,
  0xe2, 0x26, 0xe0, 0xe5, 0x0f, 0xfc, 0xed, 0x1c, 0xd1, 0x17, 0xe7, 0x0b,
  0xd5, 0x31, 0xf7, 0xe5, 0xf4, 0x9d, 0xc9, 0xe9, 0xf4, 0x1a, 0xea, 0x08,
  0xf0, 0xd4, 0x0a, 0x26, 0x1c, 0xe5, 0xb5, 0x1c, 0x22, 0xdd, 0x11, 0x29,
  0xde, 0x1d, 0xf2, 0xd0, 0xf8, 0x19, 0x22, 0xdb, 0x26, 0x26, 0x31, 0xd4,
  0xff, 0x37, 0x08, 0x1c, 0xde, 0x08, 0xa5, 0xc4, 0x28, 0x1d, 0xd0, 0x31,
  0xda, 0xd7, 0xd7, 0xb9, 0x02, 0x26, 0x27, 0x20, 0xd2, 0xe4, 0xdb, 0x23,
  0x18, 0xe1, 0xfb, 0xd5, 0x31, 0x37, 0xec, 0xf3, 0xf1, 0xea, 0xfd, 0xe3,
  0xfb, 0x00, 0xfe, 0x12, 0x1b, 0xd6, 0xe7, 0xd2, 0x1c, 0xee, 0xea, 0xfa,
  0xff, 0xf2, 0xf3, 0x2d, 0xf2, 0x1a, 0xe8, 0xd7, 0xf4, 0x08, 0x31, 0xec,
  0xff, 0x23, 0xe5, 0x1f, 0xdd, 0xd9, 0xff, 0xca, 0x30, 0x12, 0xfd, 0xed,
  0x0c, 0xdc, 0x2a, 0x13, 0x1d, 0xf3, 0x1f, 0x25, 0xe3, 0x21, 0x28, 0x13,
  0xd5, 0xd6, 0x0a, 0xeb, 0x1d, 0xfd, 0xd4, 0x23, 0x15, 0x0e, 0x02, 0x00,
  0x2e, 0xf2, 0xee, 0xf4, 0xf1, 0x1c, 0xcf, 0xd8, 0xe7, 0xe6, 0x23, 0x15,
  0x15, 0xf0, 0xe0, 0x20, 0x21, 0xfe, 0xef, 0xe0, 0x17, 0xe9, 0x1d, 0x30,
  0x0f, 0xe7, 0x03, 0xe9, 0xf4, 0x0c, 0x2f, 0xdf, 0xed, 0xf3, 0xf2, 0xe6,
  0xf4, 0xe1, 0xf8, 0xd3, 0xd5, 0xdc, 0x04, 0xec, 0x11, 0x2b, 0xf9, 0xcf,
  0xd9, 0x05, 0xd9, 0xfe, 0xe0, 0xe8, 0x1b, 0x28, 0xec, 0x0b, 0xfe, 0x27,
  0x0f, 0x27, 0xf3, 0x11, 0xf0, 0xfa, 0x13, 0x1b, 0x14, 0xdf, 0x11, 0xef,
  0xff, 0x06, 0xef, 0x12, 0xf7, 0xf5, 0xe8, 0x35, 0xff, 0x19, 0x0b, 0x15,
  0xfe, 0x37, 0x37, 0xe5, 0xef, 0xf8, 0x12, 0xec, 0x2b, 0x1d, 0x29, 0xf7,
  0xe1, 0x14, 0x24, 0x13, 0xf1, 0xf4, 0xcb, 0xec, 0x2f, 0x22, 0xfe, 0x17,
  0x0a, 0x08, 0xdd, 0xfc, 0xde, 0xf0, 0xfa, 0x34, 0xe9, 0xfd, 0x30, 0x32,
  0x04, 0xf7, 0x30, 0xe2, 0x17, 0x25, 0xf9, 0x20, 0x2a, 0x0e, 0x34, 0xdf,
  0x24, 0xf3, 0xd4, 0x2c, 0x29, 0x17, 0xd4, 0xf7, 0x16, 0x34, 0xd5, 0x31,
  0xfc, 0x0e, 0x24, 0x1b, 0x21, 0x1a, 0x1e, 0x26, 0x2e, 0x04, 0x30, 0x1b,
  0x33, 0xea, 0x27, 0x33, 0xeb, 0xea, 0xd9, 0xe5, 0x23, 0x19, 0x11, 0x11,
  0x07, 0xea, 0x2c, 0xf6, 0x30, 0x08, 0xd9, 0x04, 0x2d, 0x02, 0xf3, 0x34,
  0xec, 0x1b, 0x1b, 0xd1, 0xe8, 0xd2, 0xd3, 0xe1, 0x1c, 0xef, 0xe5, 0x2e,
  0xfd, 0xef, 0x20, 0xed, 0xfe, 0x07, 0x14, 0xf1, 0x04, 0x2e, 0x2c, 0xe7,
  0x08, 0xd4, 0xcb, 0x08, 0xd8, 0xd3, 0xd1, 0x10, 0x2e, 0x00, 0x24, 0xea,
  0xdc, 0x09, 0x25, 0xf7, 0x01, 0xf0, 0xf1, 0x0d, 0x19, 0xf9, 0xcf, 0x1c,
  0x21, 0xc9, 0xc3, 0xe3, 0xf5, 0x02, 0xf8, 0x27, 0x00, 0x18, 0xeb, 0x07,
  0x12, 0x31, 0x31, 0x31, 0xd4, 0x05, 0xea, 0x28, 0x2e, 0xde, 0xe5, 0x81,
  0x1e, 0xe6, 0x0e, 0x0e, 0x0a, 0xf9, 0x24, 0xd8, 0xf8, 0xd6, 0xea, 0xee,
  0x2e, 0x00, 0xee, 0xfd, 0x17, 0xde, 0x0a, 0xf6, 0xee, 0x00, 0x0c, 0xf4,
  0x2a, 0x03, 0x13, 0xfb, 0x13, 0xed, 0xde, 0xd7, 0xf1, 0xcf, 0x0e, 0x00,
  0x26, 0xfd, 0x27, 0xfa, 0xd3, 0xe7, 0x07, 0xf9, 0xed, 0x2f, 0xeb, 0xcf,
  0xfe, 0x1d, 0xd4, 0x06, 0x23, 0x1d, 0xf0, 0xf2, 0x30, 0xd8, 0x20, 0x0f,
  0x10, 0xe1, 0x2b, 0x1e, 0xfc, 0xed, 0x27, 0x26, 0xd4, 0xef, 0xf7, 0x05,
  0x15, 0x0a, 0xf5, 0xe5, 0xeb, 0xeb, 0xd6, 0x0a, 0x05, 0x36, 0xf8, 0x0b,
  0xdd, 0x2a, 0x05, 0x06, 0x2a, 0xe0, 0x0b, 0x0a, 0xe9, 0x14, 0xd4, 0xe8,
  0x37, 0x30, 0xe9, 0xe9, 0x17, 0xd9, 0x15, 0x04, 0x26, 0xfb, 0xdc, 0xd6,
  0xe5, 0xdc, 0x08, 0x07, 0xed, 0xfd, 0x12, 0xdf, 0x08, 0xdc, 0x36, 0xfd,
  0xda, 0x15, 0x0e, 0x10, 0x18, 0x08, 0x1d, 0x3d, 0xf1, 0x1e, 0xfd, 0x15,
  0xd1, 0x1b, 0xee, 0x2a, 0x18, 0xe0, 0xf6, 0x1f, 0x1a, 0x25, 0x05, 0xf7,
  0xe5, 0xe6, 0xe1, 0x19, 0xf4, 0x10, 0xd9, 0xcf, 0xdd, 0xe9, 0xd7, 0x12,
  0xf6, 0x08, 0xdb, 0xdb, 0xe3, 0xf3, 0x24, 0xdf, 0xe5, 0xdd, 0x30, 0xfd,
  0x06, 0x1d, 0xf3, 0x17, 0x19, 0xf1, 0xfe, 0xf2, 0x0c, 0xfb, 0x0d, 0xe7,
  0xfe, 0xff, 0xec, 0x1c, 0x1e, 0xfb, 0x12, 0xf9, 0xdf, 0x2f, 0xd2, 0xfe,
  0xd7, 0x1c, 0x0b, 0xf3, 0x07, 0xf2, 0x0d, 0xe0, 0xe4, 0x12, 0xf6, 0xec,
  0x14, 0x15, 0x01, 0xf9, 0x0a, 0xe1, 0x24, 0x22, 0xeb, 0x1d, 0xee, 0xf5,
  0x26, 0xe2, 0xd8, 0x20, 0x20, 0x01, 0xee, 0x05, 0xcb, 0x13, 0xdc, 0xf6,
  0x0c, 0xeb, 0xf3, 0x04, 0x27, 0xef, 0x28, 0x16, 0x1d, 0xe1, 0x2b, 0xd9,
  0x08, 0xe2, 0x05, 0x32, 0xd9, 0x2e, 0xe3, 0x18, 0xd7, 0x13, 0xfc, 0x1d,
  0xfd, 0x2e, 0x2a, 0xf2, 0xdf, 0xe2, 0x08, 0xf3, 0x1f, 0x1e, 0xd8, 0x18,
  0xef, 0x04, 0x26, 0xf0, 0x30, 0x28, 0x30, 0x0b, 0xfb, 0xcf, 0xd2, 0x2e,
  0x1e, 0x11, 0x2d, 0x0f, 0xd5, 0xf9, 0x16, 0xe6, 0x1d, 0xe7, 0x2f, 0x13,
  0x0e, 0x14, 0xf3, 0x06, 0xd0, 0xe7, 0x0d, 0x02, 0xe2, 0xf8, 0xd1, 0xf6,
  0x02, 0x19, 0x20, 0x15, 0x06, 0xfe, 0xf3, 0xd2, 0xec, 0x31, 0xcf, 0x14,
  0x2c, 0xec, 0x25, 0xdf, 0x11, 0x28, 0xf0, 0x0f, 0xd3, 0x0e, 0x1c, 0x1d,
  0xda, 0x20, 0x25, 0x0a, 0xda, 0xd8, 0xef, 0xe6, 0xf1, 0xd2, 0xdf, 0x0a,
  0x05, 0x09, 0xf0, 0xf7, 0xf3, 0x2c, 0x1a, 0x14, 0xdd, 0xf7, 0xe6, 0x23,
  0xff, 0x18, 0xec, 0xf8, 0xd1, 0xe7, 0xec, 0x22, 0xe3, 0xe5, 0x11, 0x22,
  0x1d, 0xe4, 0xe1, 0xd3, 0xfd, 0x1c, 0xdb, 0x2d, 0x27, 0xed, 0xd7, 0x0d,
  0xcf, 0xd2, 0xd9, 0xfc, 0xf6, 0xdf, 0x11, 0x2a, 0x13, 0x2a, 0xd7, 0xee,
  0xe8, 0x0d, 0xdf, 0x06, 0x0a, 0x03, 0x04, 0x28, 0xdf, 0x2c, 0x18, 0x2a,
  0xe5, 0x11, 0xd2, 0x0d, 0xf0, 0x0d, 0x0d, 0xf3, 0xd0, 0xea, 0xfc, 0xf0,
  0xe6, 0xe8, 0x2a, 0xfd, 0xde, 0xcf, 0xf6, 0xd4, 0xee, 0xe2, 0x16, 0xd4,
  0x06, 0xdc, 0x0a, 0x16, 0x2a, 0x02, 0xd4, 0xcf, 0x11, 0xf1, 0xda, 0x22,
  0xe7, 0xff, 0x1b, 0xee, 0x2c, 0x2d, 0xe5, 0xe4, 0xe4, 0x10, 0xff, 0xf9,
  0x05, 0xee, 0xfd, 0x2f, 0x1a, 0x02, 0xdc, 0x0f, 0x23, 0xf9, 0xd0, 0x14,
  0xd7, 0x20, 0xed, 0x16, 0xf7, 0x21, 0x29, 0x14, 0xfc, 0xd0, 0xf5, 0xff,
  0xdb, 0xda, 0x2e, 0xea, 0xdd, 0xcf, 0x2a, 0xe3, 0x27, 0x25, 0xf3, 0x25,
  0xe6, 0x02, 0x17, 0xdb, 0xe3, 0xc7, 0xdc, 0x23, 0xed, 0xf1, 0xcf, 0xf6,
  0x04, 0x08, 0xd6, 0x25, 0xf2, 0x0b, 0xfc, 0x23, 0x01, 0x15, 0x06, 0x24,
  0xfd, 0xf2, 0xdc, 0xe9, 0x23, 0xce, 0x2a, 0xf4, 0x29, 0xfa, 0x11, 0x29,
  0xba, 0xe4, 0xd1, 0xd7, 0x3a, 0x30, 0x1e, 0xdf, 0xf2, 0xef, 0x0c, 0xec,
  0x24, 0xe4, 0x82, 0x22, 0x1a, 0xd6, 0xd4, 0xf4, 0x1f, 0x24, 0xe0, 0x10,
  0x2a, 0xf9, 0xf6, 0x00, 0x0c, 0x00, 0x1d, 0x19, 0xe8, 0x24, 0x2a, 0xfa,
  0xce, 0x05, 0xa3, 0xea, 0x18, 0xe8, 0x1e, 0xf8, 0xe0, 0xef, 0xf0, 0xd6,
  0x24, 0x13, 0xf2, 0xfb, 0xeb, 0xd4, 0x1b, 0xe3, 0xe6, 0xd0, 0x2b, 0xd6,
  0x07, 0x05, 0x22, 0xd7, 0xe5, 0xf0, 0xcb, 0x11, 0xce, 0x27, 0x15, 0x15,
  0xfb, 0xf5, 0x1a, 0xf0, 0x03, 0x23, 0xe1, 0x07, 0x09, 0xd0, 0xce, 0xe9,
  0xdd, 0xea, 0x24, 0x0d, 0xef, 0x0d, 0xf7, 0x14, 0x20, 0x28, 0xe6, 0xec,
  0xec, 0x0b, 0x14, 0x12, 0xe8, 0xcc, 0xba, 0x22, 0xea, 0x09, 0x01, 0xf8,
  0xc5, 0x13, 0xed, 0x10, 0xf8, 0x0d, 0x2c, 0x28, 0x0f, 0x14, 0x0f, 0x08,
  0x30, 0xf2, 0xd1, 0xae, 0x24, 0x0c, 0x27, 0x20, 0x17, 0xeb, 0xf2, 0x0a,
  0x0a, 0xe6, 0x1a, 0x29, 0x2e, 0x2b, 0x00, 0x14, 0xf2, 0x2a, 0xc8, 0x2d,
  0x30, 0xfa, 0xd3, 0xf4, 0xf9, 0xff, 0xf7, 0xfd, 0x20, 0xee, 0x21, 0x30,
  0x0b, 0x16, 0x15, 0x1f, 0xd8, 0xee, 0x0f, 0x2d, 0xd2, 0x01, 0xd5, 0x12,
  0xd4, 0x21, 0x09, 0xef, 0xdd, 0xf5, 0x0f, 0xdd, 0x30, 0xcf, 0x13, 0x4d,
  0x18, 0x20, 0xfb, 0xce, 0xcf, 0xde, 0xe8, 0xbc, 0x15, 0x26, 0xda, 0xf6,
  0x0b, 0xe0, 0x22, 0x18, 0x17, 0x20, 0xed, 0x17, 0x2b, 0x0f, 0x2b, 0x2c,
  0x06, 0x33, 0xff, 0xd3, 0xd4, 0x21, 0x18, 0x15, 0x09, 0x2f, 0x26, 0xe1,
  0xde, 0x21, 0x14, 0x0f, 0x17, 0x0a, 0x31, 0xfa, 0xdf, 0xfa, 0xd5, 0x0e,
  0xf0, 0x0c, 0x0b, 0x21, 0xfb, 0x2a, 0x27, 0xd5, 0x31, 0xf5, 0xe2, 0x02,
  0x11, 0x01, 0xdb, 0x1e, 0xe7, 0xe8, 0x2c, 0xdd, 0x21, 0xd1, 0xe1, 0xef,
  0x08, 0xe0, 0xde, 0xe6, 0x01, 0x06, 0x23, 0x0e, 0xff, 0xcf, 0x25, 0x0b,
  0xf3, 0xe9, 0x02, 0x06, 0x0f, 0x0c, 0xeb, 0xea, 0xfc, 0xf5, 0xf0, 0xeb,
  0x31, 0x09, 0xf3, 0x1b, 0x2a, 0x1f, 0xef, 0x0b, 0x26, 0xf2, 0xf9, 0x21,
  0x12, 0xfd, 0xd8, 0x22, 0xfb, 0xd5, 0xdd, 0x1c, 0xd5, 0x15, 0x1b, 0x2e,
  0xf6, 0xe1, 0x2b, 0xdc, 0x0e, 0x30, 0x23, 0xd7, 0x00, 0xe7, 0x04, 0xd9,
  0xe5, 0xfc, 0xde, 0x1d, 0x2a, 0x23, 0x04, 0xf6, 0xf0, 0x0d, 0xdf, 0x18,
  0x12, 0xfd, 0x0f, 0x22, 0x13, 0x10, 0xd1, 0x0f, 0xef, 0x24, 0x07, 0xf5,
  0xff, 0xd9, 0xed, 0x31, 0x05, 0x22, 0x34, 0x25, 0xdb, 0x18, 0xd1, 0xf0,
  0x17, 0xf7, 0xd4, 0x2c, 0x06, 0xdb, 0xfb, 0x0c, 0x04, 0x16, 0x0a, 0x31,
  0xd7, 0x19, 0xec, 0xd6, 0xfc, 0x1b, 0xe5, 0x0f, 0xea, 0x1d, 0x03, 0xe9,
  0xe6, 0x1d, 0x33, 0xdf, 0x16, 0x0b, 0xf0, 0xf1, 0x16, 0xee, 0x09, 0x29,
  0xfc, 0xef, 0x0c, 0xd3, 0x22, 0x13, 0xf8, 0xd6, 0x02, 0x23, 0x14, 0xdd,
  0x13, 0x25, 0x36, 0x11, 0x38, 0xf2, 0x32, 0xe6, 0x3e, 0xe3, 0x10, 0x25,
  0x10, 0xec, 0x2e, 0x2e, 0x22, 0xfd, 0xdc, 0x14, 0xf9, 0x2d, 0xef, 0xe4,
  0xce, 0x2f, 0x22, 0xf8, 0xf4, 0xd9, 0x29, 0x25, 0x2d, 0xf2, 0xe8, 0xe7,
  0x00, 0xe8, 0x10, 0xe3, 0xe3, 0xe7, 0xec, 0x01, 0x0e, 0x06, 0x04, 0x0b,
  0x31, 0x18, 0xf4, 0xde, 0xfe, 0xfc, 0xff, 0xff, 0x04, 0x00, 0x00, 0x00,
  0x80, 0x00, 0x00, 0x00, 0xb0, 0xfd, 0xff, 0xff, 0x65, 0xf3, 0xff, 0xff,
  0x76, 0xfb, 0xff, 0xff, 0x72, 0xff, 0xff, 0xff, 0x00, 0x00, 0x00, 0x00,
  0xd1, 0xf6, 0xff, 0xff, 0xf0, 0x14, 0x00, 0x00, 0x16, 0x01, 0x00, 0x00,
  0x0c, 0x12, 0x00, 0x00, 0xcf, 0x00, 0x00, 0x00, 0x00, 0x00, 0x00, 0x00,
  0x5a, 0x15, 0x00, 0x00, 0x81, 0xfe, 0xff, 0xff, 0x00, 0x00, 0x00, 0x00,
  0x15, 0x0e, 0x00, 0x00, 0x34, 0x09, 0x00, 0x00, 0x63, 0x1d, 0x00, 0x00,
  0xad, 0xfe, 0xff, 0xff, 0xad, 0xfe, 0xff, 0xff, 0x55, 0xfd, 0xff, 0xff,
  0xf5, 0xfd, 0xff, 0xff, 0xc2, 0xfd, 0xff, 0xff, 0x24, 0xff, 0xff, 0xff,
  0x5a, 0xff, 0xff, 0xff, 0x89, 0xf9, 0xff, 0xff, 0x0b, 0x10, 0x00, 0x00,
  0xc1, 0x15, 0x00, 0x00, 0xb7, 0x13, 0x00, 0x00, 0x1e, 0xfe, 0xff, 0xff,
  0xfa, 0xff, 0xff, 0xff, 0x76, 0xfb, 0xff, 0xff, 0xf6, 0xfb, 0xff, 0xff,
  0x8a, 0xfd, 0xff, 0xff, 0x04, 0x00, 0x00, 0x00, 0x00, 0x02, 0x00, 0x00,
  0x03, 0xf4, 0xea, 0x31, 0xf1, 0x22, 0x11, 0x1c, 0x95, 0xee, 0x15, 0xdf,
  0x2e, 0xd4, 0x10, 0x23, 0x49, 0xe4, 0xfc, 0xe2, 0xd0, 0x23, 0x2b, 0x09,
  0x24, 0xa1, 0xed, 0xef, 0xf4, 0x00, 0x17, 0x24, 0xd6, 0xe1, 0x0a, 0xf7,
  0x2e, 0x16, 0xe1, 0xdc, 0x1e, 0x1b, 0xe3, 0xf3, 0x0f, 0x2b, 0x02, 0x02,
  0x18, 0x10, 0x20, 0xd6, 0x00, 0x07, 0x04, 0xe0, 0xf8, 0x02, 0x21, 0xd8,
  0x14, 0xd6, 0x07, 0x0e, 0x13, 0x2e, 0x2b, 0x22, 0x17, 0x2c, 0xca, 0xfe,
  0x41, 0xd9, 0xcf, 0xfd, 0x22, 0x2f, 0x0c, 0xfd, 0x06, 0xd2, 0x31, 0x20,
  0xcf, 0x22, 0xea, 0xf8, 0xe3, 0x14, 0xe4, 0x05, 0x11, 0x21, 0xec, 0xfb,
  0xd3, 0xd6, 0x1f, 0xf4, 0x22, 0xeb, 0x24, 0x1c, 0x81, 0xf7, 0xf7, 0x8c,
  0xd2, 0xf9, 0x13, 0x1c, 0x51, 0xe8, 0xdc, 0x2c, 0x0f, 0xdb, 0x13, 0xf6,
  0xe5, 0x9d, 0x33, 0x32, 0x05, 0x18, 0xf6, 0x0d, 0xf0, 0x16, 0x27, 0x27,
  0xd2, 0xdf, 0x0a, 0x27, 0x11, 0x2b, 0xf7, 0x10, 0x22, 0xd5, 0xfc, 0xde,
  0xf9, 0x1c, 0xef, 0xe1, 0xd9, 0x2d, 0x05, 0x08, 0xee, 0xcf, 0xff, 0xe6,
  0x23, 0xf7, 0xe6, 0xd7, 0xdd, 0xef, 0xe2, 0x0f, 0x27, 0xe0, 0x43, 0xf2,
  0xda, 0x1c, 0x25, 0xc4, 0xe6, 0xf3, 0x11, 0x19, 0x20, 0xfe, 0x33, 0x30,
  0xdd, 0xd9, 0x12, 0xfe, 0xf4, 0x9e, 0x53, 0x31, 0xe9, 0xe6, 0x01, 0xdc,
  0x14, 0x15, 0x2f, 0x1c, 0xe3, 0x13, 0x2c, 0xe5, 0x16, 0x1e, 0xeb, 0xdb,
  0xf1, 0xd3, 0xe4, 0xd5, 0x00, 0xe3, 0x2d, 0xdf, 0xe7, 0x0a, 0x09, 0xfe,
  0xfa, 0x0e, 0xf9, 0xe9, 0x2e, 0xe2, 0x29, 0xd4, 0x11, 0xe5, 0x0e, 0xe3,
  0xd8, 0xd2, 0xd9, 0xf2, 0x07, 0xe6, 0x00, 0xeb, 0x09, 0xfa, 0xd6, 0x0f,
  0xee, 0x22, 0x0d, 0xea, 0x11, 0x24, 0xde, 0x02, 0xf7, 0x0a, 0x12, 0x06,
  0xfb, 0xda, 0x2b, 0xe7, 0x0b, 0xf8, 0xde, 0x0b, 0x19, 0xd0, 0xf2, 0x19,
  0x03, 0xe6, 0xec, 0xe7, 0xf5, 0x07, 0xe0, 0x0c, 0xd7, 0xea, 0xd3, 0x0b,
  0x2e, 0x05, 0xfc, 0xd8, 0x17, 0xf4, 0xe0, 0x14, 0xff, 0x12, 0xe9, 0xdc,
  0xd8, 0xe6, 0x17, 0x1c, 0x17, 0xf3, 0xd2, 0x24, 0xd8, 0xdd, 0xe9, 0x1d,
  0x0e, 0x28, 0xda, 0xed, 0x0c, 0x01, 0x23, 0x14, 0xfa, 0xd2, 0xfc, 0xd7,
  0x05, 0x2b, 0x22, 0xda, 0x30, 0xd9, 0xfd, 0xfa, 0xf0, 0xf6, 0x1f, 0xed,
  0xd9, 0xf4, 0xef, 0xd4, 0x10, 0xf7, 0x1a, 0xec, 0x10, 0xfe, 0x1e, 0xf5,
  0xff, 0xf5, 0x1c, 0xe3, 0xd5, 0xf8, 0x26, 0x29, 0xf0, 0x00, 0x09, 0xfb,
  0x1c, 0xd4, 0x1c, 0xd0, 0x20, 0xf5, 0x1c, 0xef, 0x1f, 0xf6, 0x09, 0x16,
  0xcd, 0xf4, 0x2a, 0xc0, 0x24, 0xcf, 0x26, 0x0a, 0x26, 0xfb, 0x24, 0x24,
  0xff, 0xf3, 0x14, 0xff, 0xe7, 0xaf, 0x45, 0xf0, 0x12, 0x00, 0xe2, 0x0b,
  0x2d, 0xea, 0x1d, 0x05, 0xfc, 0x0d, 0x0f, 0xd6, 0x50, 0x12, 0x05, 0x44,
  0x20, 0x0b, 0x21, 0x24, 0xe7, 0x2f, 0xf1, 0xec, 0x1c, 0x2f, 0x2c, 0x17,
  0xff, 0x37, 0xe9, 0xf8, 0x2d, 0x1a, 0x11, 0x39, 0x0f, 0xf1, 0x2b, 0xe9,
  0x27, 0x1f, 0x53, 0xe3, 0xb4, 0xdb, 0x26, 0xa0, 0x09, 0xe4, 0x12, 0x26,
  0xfd, 0x03, 0xe2, 0x05, 0xd5, 0xe7, 0xe4, 0x29, 0x0c, 0xf4, 0x10, 0x00,
  0x2a, 0xf3, 0x28, 0xea, 0x2e, 0xe3, 0xf7, 0x21, 0x25, 0xdf, 0x2c, 0xf4,
  0x1f, 0x17, 0xe1, 0x35, 0x15, 0x05, 0x19, 0xec, 0x1c, 0x1d, 0x3a, 0x22,
  0x2d, 0x17, 0xe6, 0x22, 0x26, 0x5e, 0x1b, 0xf0, 0x17, 0x06, 0xca, 0x18,
  0xd9, 0x31, 0x1c, 0x0f, 0x0f, 0xee, 0x03, 0x29, 0x30, 0xf3, 0x15, 0x4a,
  0xcd, 0xd8, 0xe8, 0x24, 0xbe, 0x24, 0x33, 0xfd, 0x0e, 0x37, 0x25, 0xe0,
  0x0c, 0x63, 0xd0, 0xe4, 0x1d, 0xd7, 0xf6, 0x3b, 0x96, 0xff, 0xff, 0xff,
  0x04, 0x00, 0x00, 0x00, 0x40, 0x00, 0x00, 0x00, 0x19, 0x04, 0x00, 0x00,
  0x50, 0xff, 0xff, 0xff, 0x83, 0xfd, 0xff, 0xff, 0x48, 0x05, 0x00, 0x00,
  0x7f, 0xff, 0xff, 0xff, 0xed, 0x05, 0x00, 0x00, 0x68, 0xff, 0xff, 0xff,
  0x00, 0x00, 0x00, 0x00, 0x00, 0x00, 0x00, 0x00, 0x70, 0xff, 0xff, 0xff,
  0x6e, 0xff, 0xff, 0xff, 0x66, 0x03, 0x00, 0x00, 0x36, 0xfc, 0xff, 0xff,
  0xa6, 0x02, 0x00, 0x00, 0x50, 0xfe, 0xff, 0xff, 0xc5, 0xfa, 0xff, 0xff,
  0xe2, 0xff, 0xff, 0xff, 0x04, 0x00, 0x00, 0x00, 0x10, 0x00, 0x00, 0x00,
  0xc7, 0x55, 0x3a, 0xb1, 0x2f, 0x81, 0x2e, 0x68, 0xc3, 0x14, 0x11, 0xba,
  0x25, 0xa4, 0x7f, 0x62, 0x00, 0x00, 0x06, 0x00, 0x08, 0x00, 0x04, 0x00,
  0x06, 0x00, 0x00, 0x00, 0x04, 0x00, 0x00, 0x00, 0x04, 0x00, 0x00, 0x00,
  0xc7, 0xfa, 0xff, 0xff, 0x80, 0xff, 0xff, 0xff, 0x84, 0xff, 0xff, 0xff,
  0x0f, 0x00, 0x00, 0x00, 0x4d, 0x4c, 0x49, 0x52, 0x20, 0x43, 0x6f, 0x6e,
  0x76, 0x65, 0x72, 0x74, 0x65, 0x64, 0x2e, 0x00, 0x01, 0x00, 0x00, 0x00,
  0x14, 0x00, 0x00, 0x00, 0x00, 0x00, 0x0e, 0x00, 0x18, 0x00, 0x14, 0x00,
  0x10, 0x00, 0x0c, 0x00, 0x08, 0x00, 0x04, 0x00, 0x0e, 0x00, 0x00, 0x00,
  0x14, 0x00, 0x00, 0x00, 0x1c, 0x00, 0x00, 0x00, 0x14, 0x01, 0x00, 0x00,
  0x18, 0x01, 0x00, 0x00, 0x1c, 0x01, 0x00, 0x00, 0x04, 0x00, 0x00, 0x00,
  0x6d, 0x61, 0x69, 0x6e, 0x00, 0x00, 0x00, 0x00, 0x04, 0x00, 0x00, 0x00,
  0xbc, 0x00, 0x00, 0x00, 0x74, 0x00, 0x00, 0x00, 0x3c, 0x00, 0x00, 0x00,
  0x04, 0x00, 0x00, 0x00, 0x62, 0xff, 0xff, 0xff, 0x14, 0x00, 0x00, 0x00,
  0x00, 0x00, 0x00, 0x08, 0x10, 0x00, 0x00, 0x00, 0x14, 0x00, 0x00, 0x00,
  0x04, 0x00, 0x04, 0x00, 0x04, 0x00, 0x00, 0x00, 0x01, 0x00, 0x00, 0x00,
  0x0c, 0x00, 0x00, 0x00, 0x03, 0x00, 0x00, 0x00, 0x0b, 0x00, 0x00, 0x00,
  0x02, 0x00, 0x00, 0x00, 0x01, 0x00, 0x00, 0x00, 0x96, 0xff, 0xff, 0xff,
  0x10, 0x00, 0x00, 0x00, 0x00, 0x00, 0x00, 0x08, 0x10, 0x00, 0x00, 0x00,
  0x14, 0x00, 0x00, 0x00, 0x86, 0xff, 0xff, 0xff, 0x00, 0x00, 0x00, 0x01,
  0x01, 0x00, 0x00, 0x00, 0x0b, 0x00, 0x00, 0x00, 0x03, 0x00, 0x00, 0x00,
  0x0a, 0x00, 0x00, 0x00, 0x04, 0x00, 0x00, 0x00, 0x03, 0x00, 0x00, 0x00,
  0xca, 0xff, 0xff, 0xff, 0x10, 0x00, 0x00, 0x00, 0x00, 0x00, 0x00, 0x08,
  0x10, 0x00, 0x00, 0x00, 0x14, 0x00, 0x00, 0x00, 0xba, 0xff, 0xff, 0xff,
  0x00, 0x00, 0x00, 0x01, 0x01, 0x00, 0x00, 0x00, 0x0a, 0x00, 0x00, 0x00,
  0x03, 0x00, 0x00, 0x00, 0x09, 0x00, 0x00, 0x00, 0x06, 0x00, 0x00, 0x00,
  0x05, 0x00, 0x00, 0x00, 0x00, 0x00, 0x0e, 0x00, 0x16, 0x00, 0x00, 0x00,
  0x10, 0x00, 0x0c, 0x00, 0x0b, 0x00, 0x04, 0x00, 0x0e, 0x00, 0x00, 0x00,
  0x18, 0x00, 0x00, 0x00, 0x00, 0x00, 0x00, 0x08, 0x18, 0x00, 0x00, 0x00,
  0x1c, 0x00, 0x00, 0x00, 0x00, 0x00, 0x06, 0x00, 0x08, 0x00, 0x07, 0x00,
  0x06, 0x00, 0x00, 0x00, 0x00, 0x00, 0x00, 0x01, 0x01, 0x00, 0x00, 0x00,
  0x09, 0x00, 0x00, 0x00, 0x03, 0x00, 0x00, 0x00, 0x00, 0x00, 0x00, 0x00,
  0x08, 0x00, 0x00, 0x00, 0x07, 0x00, 0x00, 0x00, 0x01, 0x00, 0x00, 0x00,
  0x0c, 0x00, 0x00, 0x00, 0x01, 0x00, 0x00, 0x00, 0x00, 0x00, 0x00, 0x00,
  0x0d, 0x00, 0x00, 0x00, 0x68, 0x06, 0x00, 0x00, 0xd8, 0x05, 0x00, 0x00,
  0x54, 0x05, 0x00, 0x00, 0xd8, 0x04, 0x00, 0x00, 0x6c, 0x04, 0x00, 0x00,
  0xf0, 0x03, 0x00, 0x00, 0x84, 0x03, 0x00, 0x00, 0x08, 0x03, 0x00, 0x00,
  0x9c, 0x02, 0x00, 0x00, 0xe8, 0x01, 0x00, 0x00, 0x34, 0x01, 0x00, 0x00,
  0x80, 0x00, 0x00, 0x00, 0x04, 0x00, 0x00, 0x00, 0xe2, 0xf9, 0xff, 0xff,
  0x00, 0x00, 0x00, 0x01, 0x18, 0x00, 0x00, 0x00, 0x20, 0x00, 0x00, 0x00,
  0x3c, 0x00, 0x00, 0x00, 0x0d, 0x00, 0x00, 0x00, 0x00, 0x00, 0x00, 0x09,
  0x50, 0x00, 0x00, 0x00, 0x02, 0x00, 0x00, 0x00, 0xff, 0xff, 0xff, 0xff,
  0x01, 0x00, 0x00, 0x00, 0xcc, 0xf9, 0xff, 0xff, 0x08, 0x00, 0x00, 0x00,
  0x10, 0x00, 0x00, 0x00, 0x01, 0x00, 0x00, 0x00, 0xfd, 0xff, 0xff, 0xff,
  0xff, 0xff, 0xff, 0xff, 0x01, 0x00, 0x00, 0x00, 0x30, 0x53, 0x00, 0x3c,
  0x19, 0x00, 0x00, 0x00, 0x53, 0x74, 0x61, 0x74, 0x65, 0x66, 0x75, 0x6c,
  0x50, 0x61, 0x72, 0x74, 0x69, 0x74, 0x69, 0x6f, 0x6e, 0x65, 0x64, 0x43,
  0x61, 0x6c, 0x6c, 0x3a, 0x30, 0x00, 0x00, 0x00, 0x02, 0x00, 0x00, 0x00,
  0x01, 0x00, 0x00, 0x00, 0x01, 0x00, 0x00, 0x00, 0x5a, 0xfa, 0xff, 0xff,
  0x00, 0x00, 0x00, 0x01, 0x18, 0x00, 0x00, 0x00, 0x20, 0x00, 0x00, 0x00,
  0x3c, 0x00, 0x00, 0x00, 0x0c, 0x00, 0x00, 0x00, 0x00, 0x00, 0x00, 0x09,
  0x88, 0x00, 0x00, 0x00, 0x02, 0x00, 0x00, 0x00, 0xff, 0xff, 0xff, 0xff,
  0x10, 0x00, 0x00, 0x00, 0x44, 0xfa, 0xff, 0xff, 0x08, 0x00, 0x00, 0x00,
  0x10, 0x00, 0x00, 0x00, 0x01, 0x00, 0x00, 0x00, 0x80, 0xff, 0xff, 0xff,
  0xff, 0xff, 0xff, 0xff, 0x01, 0x00, 0x00, 0x00, 0x6b, 0x4f, 0x3d, 0x3c,
  0x52, 0x00, 0x00, 0x00, 0x73, 0x65, 0x71, 0x75, 0x65, 0x6e, 0x74, 0x69,
  0x61, 0x6c, 0x5f, 0x31, 0x2f, 0x64, 0x65, 0x6e, 0x73, 0x65, 0x5f, 0x34,
  0x2f, 0x4d, 0x61, 0x74, 0x4d, 0x75, 0x6c, 0x3b, 0x73, 0x65, 0x71, 0x75,
  0x65, 0x6e, 0x74, 0x69, 0x61, 0x6c, 0x5f, 0x31, 0x2f, 0x64, 0x65, 0x6e,
  0x73, 0x65, 0x5f, 0x34, 0x2f, 0x52, 0x65, 0x6c, 0x75, 0x3b, 0x73, 0x65,
  0x71, 0x75, 0x65, 0x6e, 0x74, 0x69, 0x61, 0x6c, 0x5f, 0x31, 0x2f, 0x64,
  0x65, 0x6e, 0x73, 0x65, 0x5f, 0x34, 0x2f, 0x42, 0x69, 0x61, 0x73, 0x41,
  0x64, 0x64, 0x00, 0x00, 0x02, 0x00, 0x00, 0x00, 0x01, 0x00, 0x00, 0x00,
  0x10, 0x00, 0x00, 0x00, 0x0a, 0xfb, 0xff, 0xff, 0x00, 0x00, 0x00, 0x01,
  0x18, 0x00, 0x00, 0x00, 0x20, 0x00, 0x00, 0x00, 0x3c, 0x00, 0x00, 0x00,
  0x0b, 0x00, 0x00, 0x00, 0x00, 0x00, 0x00, 0x09, 0x88, 0x00, 0x00, 0x00,
  0x02, 0x00, 0x00, 0x00, 0xff, 0xff, 0xff, 0xff, 0x20, 0x00, 0x00, 0x00,
  0xf4, 0xfa, 0xff, 0xff, 0x08, 0x00, 0x00, 0x00, 0x10, 0x00, 0x00, 0x00,
  0x01, 0x00, 0x00, 0x00, 0x80, 0xff, 0xff, 0xff, 0xff, 0xff, 0xff, 0xff,
  0x01, 0x00, 0x00, 0x00, 0xfc, 0x06, 0x7b, 0x3c, 0x52, 0x00, 0x00, 0x00,
  0x73, 0x65, 0x71, 0x75, 0x65, 0x6e, 0x74, 0x69, 0x61, 0x6c, 0x5f, 0x31,
  0x2f, 0x64, 0x65, 0x6e, 0x73, 0x65, 0x5f, 0x33, 0x2f, 0x4d, 0x61, 0x74,
  0x4d, 0x75, 0x6c, 0x3b, 0x73, 0x65, 0x71, 0x75, 0x65, 0x6e, 0x74, 0x69,
  0x61, 0x6c, 0x5f, 0x31, 0x2f, 0x64, 0x65, 0x6e, 0x73, 0x65, 0x5f, 0x33,
  0x2f, 0x52, 0x65, 0x6c, 0x75, 0x3b, 0x73, 0x65, 0x71, 0x75, 0x65, 0x6e,
  0x74, 0x69, 0x61, 0x6c, 0x5f, 0x31, 0x2f, 0x64, 0x65, 0x6e, 0x73, 0x65,
  0x5f, 0x33, 0x2f, 0x42, 0x69, 0x61, 0x73, 0x41, 0x64, 0x64, 0x00, 0x00,
  0x02, 0x00, 0x00, 0x00, 0x01, 0x00, 0x00, 0x00, 0x20, 0x00, 0x00, 0x00,
  0xba, 0xfb, 0xff, 0xff, 0x00, 0x00, 0x00, 0x01, 0x18, 0x00, 0x00, 0x00,
  0x20, 0x00, 0x00, 0x00, 0x3c, 0x00, 0x00, 0x00, 0x0a, 0x00, 0x00, 0x00,
  0x00, 0x00, 0x00, 0x09, 0x88, 0x00, 0x00, 0x00, 0x02, 0x00, 0x00, 0x00,
  0xff, 0xff, 0xff, 0xff, 0x40, 0x00, 0x00, 0x00, 0xa4, 0xfb, 0xff, 0xff,
  0x08, 0x00, 0x00, 0x00, 0x10, 0x00, 0x00, 0x00, 0x01, 0x00, 0x00, 0x00,
  0x80, 0xff, 0xff, 0xff, 0xff, 0xff, 0xff, 0xff, 0x01, 0x00, 0x00, 0x00,
  0xf0, 0xfa, 0xfe, 0x3b, 0x52, 0x00, 0x00, 0x00, 0x73, 0x65, 0x71, 0x75,
  0x65, 0x6e, 0x74, 0x69, 0x61, 0x6c, 0x5f, 0x31, 0x2f, 0x64, 0x65, 0x6e,
  0x73, 0x65, 0x5f, 0x32, 0x2f, 0x4d, 0x61, 0x74, 0x4d, 0x75, 0x6c, 0x3b,
  0x73, 0x65, 0x71, 0x75, 0x65, 0x6e, 0x74, 0x69, 0x61, 0x6c, 0x5f, 0x31,
  0x2f, 0x64, 0x65, 0x6e, 0x73, 0x65, 0x5f, 0x32, 0x2f, 0x52, 0x65, 0x6c,
  0x75, 0x3b, 0x73, 0x65, 0x71, 0x75, 0x65, 0x6e, 0x74, 0x69, 0x61, 0x6c,
  0x5f, 0x31, 0x2f, 0x64, 0x65, 0x6e, 0x73, 0x65, 0x5f, 0x32, 0x2f, 0x42,
  0x69, 0x61, 0x73, 0x41, 0x64, 0x64, 0x00, 0x00, 0x02, 0x00, 0x00, 0x00,
  0x01, 0x00, 0x00, 0x00, 0x40, 0x00, 0x00, 0x00, 0xf6, 0xfc, 0xff, 0xff,
  0x00, 0x00, 0x00, 0x01, 0x14, 0x00, 0x00, 0x00, 0x30, 0x00, 0x00, 0x00,
  0x09, 0x00, 0x00, 0x00, 0x00, 0x00, 0x00, 0x09, 0x44, 0x00, 0x00, 0x00,
  0x44, 0xfc, 0xff, 0xff, 0x08, 0x00, 0x00, 0x00, 0x10, 0x00, 0x00, 0x00,
  0x01, 0x00, 0x00, 0x00, 0x00, 0x00, 0x00, 0x00, 0x00, 0x00, 0x00, 0x00,
  0x01, 0x00, 0x00, 0x00, 0x8c, 0x7b, 0x25, 0x3b, 0x1b, 0x00, 0x00, 0x00,
  0x73, 0x65, 0x71, 0x75, 0x65, 0x6e, 0x74, 0x69, 0x61, 0x6c, 0x5f, 0x31,
  0x2f, 0x64, 0x65, 0x6e, 0x73, 0x65, 0x5f, 0x32, 0x2f, 0x4d, 0x61, 0x74,
  0x4d, 0x75, 0x6c, 0x00, 0x02, 0x00, 0x00, 0x00, 0x40, 0x00, 0x00, 0x00,
  0x01, 0x00, 0x00, 0x00, 0x5e, 0xfd, 0xff, 0xff, 0x00, 0x00, 0x00, 0x01,
  0x14, 0x00, 0x00, 0x00, 0x34, 0x00, 0x00, 0x00, 0x08, 0x00, 0x00, 0x00,
  0x00, 0x00, 0x00, 0x02, 0x58, 0x00, 0x00, 0x00, 0xac, 0xfc, 0xff, 0xff,
  0x08, 0x00, 0x00, 0x00, 0x14, 0x00, 0x00, 0x00, 0x01, 0x00, 0x00, 0x00,
  0x00, 0x00, 0x00, 0x00, 0x00, 0x00, 0x00, 0x00, 0x00, 0x00, 0x00, 0x00,
  0x01, 0x00, 0x00, 0x00, 0x95, 0x76, 0x82, 0x38, 0x2b, 0x00, 0x00, 0x00,
  0x73, 0x65, 0x71, 0x75, 0x65, 0x6e, 0x74, 0x69, 0x61, 0x6c, 0x5f, 0x31,
  0x2f, 0x64, 0x65, 0x6e, 0x73, 0x65, 0x5f, 0x32, 0x2f, 0x42, 0x69, 0x61,
  0x73, 0x41, 0x64, 0x64, 0x2f, 0x52, 0x65, 0x61, 0x64, 0x56, 0x61, 0x72,
  0x69, 0x61, 0x62, 0x6c, 0x65, 0x4f, 0x70, 0x00, 0x01, 0x00, 0x00, 0x00,
  0x40, 0x00, 0x00, 0x00, 0xd6, 0xfd, 0xff, 0xff, 0x00, 0x00, 0x00, 0x01,
  0x14, 0x00, 0x00, 0x00, 0x30, 0x00, 0x00, 0x00, 0x07, 0x00, 0x00, 0x00,
  0x00, 0x00, 0x00, 0x09, 0x44, 0x00, 0x00, 0x00, 0x24, 0xfd, 0xff, 0xff,
  0x08, 0x00, 0x00, 0x00, 0x10, 0x00, 0x00, 0x00, 0x01, 0x00, 0x00, 0x00,
  0x00, 0x00, 0x00, 0x00, 0x00, 0x00, 0x00, 0x00, 0x01, 0x00, 0x00, 0x00,
  0x3f, 0x38, 0xa4, 0x3b, 0x1b, 0x00, 0x00, 0x00, 0x73, 0x65, 0x71, 0x75,
  0x65, 0x6e, 0x74, 0x69, 0x61, 0x6c, 0x5f, 0x31, 0x2f, 0x64, 0x65, 0x6e,
  0x73, 0x65, 0x5f, 0x33, 0x2f, 0x4d, 0x61, 0x74, 0x4d, 0x75, 0x6c, 0x00,
  0x02, 0x00, 0x00, 0x00, 0x20, 0x00, 0x00, 0x00, 0x40, 0x00, 0x00, 0x00,
  0x3e, 0xfe, 0xff, 0xff, 0x00, 0x00, 0x00, 0x01, 0x14, 0x00, 0x00, 0x00,
  0x34, 0x00, 0x00, 0x00, 0x06, 0x00, 0x00, 0x00, 0x00, 0x00, 0x00, 0x02,
  0x58, 0x00, 0x00, 0x00, 0x8c, 0xfd, 0xff, 0xff, 0x08, 0x00, 0x00, 0x00,
  0x14, 0x00, 0x00, 0x00, 0x01, 0x00, 0x00, 0x00, 0x00, 0x00, 0x00, 0x00,
  0x00, 0x00, 0x00, 0x00, 0x00, 0x00, 0x00, 0x00, 0x01, 0x00, 0x00, 0x00,
  0xc7, 0x90, 0x23, 0x38, 0x2b, 0x00, 0x00, 0x00, 0x73, 0x65, 0x71, 0x75,
  0x65, 0x6e, 0x74, 0x69, 0x61, 0x6c, 0x5f, 0x31, 0x2f, 0x64, 0x65, 0x6e,
  0x73, 0x65, 0x5f, 0x33, 0x2f, 0x42, 0x69, 0x61, 0x73, 0x41, 0x64, 0x64,
  0x2f, 0x52, 0x65, 0x61, 0x64, 0x56, 0x61, 0x72, 0x69, 0x61, 0x62, 0x6c,
  0x65, 0x4f, 0x70, 0x00, 0x01, 0x00, 0x00, 0x00, 0x20, 0x00, 0x00, 0x00,
  0xb6, 0xfe, 0xff, 0xff, 0x00, 0x00, 0x00, 0x01, 0x14, 0x00, 0x00, 0x00,
  0x30, 0x00, 0x00, 0x00, 0x05, 0x00, 0x00, 0x00, 0x00, 0x00, 0x00, 0x09,
  0x44, 0x00, 0x00, 0x00, 0x04, 0xfe, 0xff, 0xff, 0x08, 0x00, 0x00, 0x00,
  0x10, 0x00, 0x00, 0x00, 0x01, 0x00, 0x00, 0x00, 0x00, 0x00, 0x00, 0x00,
  0x00, 0x00, 0x00, 0x00, 0x01, 0x00, 0x00, 0x00, 0xa3, 0x9d, 0xeb, 0x3b,
  0x1b, 0x00, 0x00, 0x00, 0x73, 0x65, 0x71, 0x75, 0x65, 0x6e, 0x74, 0x69,
  0x61, 0x6c, 0x5f, 0x31, 0x2f, 0x64, 0x65, 0x6e, 0x73, 0x65, 0x5f, 0x34,
  0x2f, 0x4d, 0x61, 0x74, 0x4d, 0x75, 0x6c, 0x00, 0x02, 0x00, 0x00, 0x00,
  0x10, 0x00, 0x00, 0x00, 0x20, 0x00, 0x00, 0x00, 0x1e, 0xff, 0xff, 0xff,
  0x00, 0x00, 0x00, 0x01, 0x14, 0x00, 0x00, 0x00, 0x34, 0x00, 0x00, 0x00,
  0x04, 0x00, 0x00, 0x00, 0x00, 0x00, 0x00, 0x02, 0x58, 0x00, 0x00, 0x00,
  0x6c, 0xfe, 0xff, 0xff, 0x08, 0x00, 0x00, 0x00, 0x14, 0x00, 0x00, 0x00,
  0x01, 0x00, 0x00, 0x00, 0x00, 0x00, 0x00, 0x00, 0x00, 0x00, 0x00, 0x00,
  0x00, 0x00, 0x00, 0x00, 0x01, 0x00, 0x00, 0x00, 0xfc, 0x09, 0xe7, 0x38,
  0x2b, 0x00, 0x00, 0x00, 0x73, 0x65, 0x71, 0x75, 0x65, 0x6e, 0x74, 0x69,
  0x61, 0x6c, 0x5f, 0x31, 0x2f, 0x64, 0x65, 0x6e, 0x73, 0x65, 0x5f, 0x34,
  0x2f, 0x42, 0x69, 0x61, 0x73, 0x41, 0x64, 0x64, 0x2f, 0x52, 0x65, 0x61,
  0x64, 0x56, 0x61, 0x72, 0x69, 0x61, 0x62, 0x6c, 0x65, 0x4f, 0x70, 0x00,
  0x01, 0x00, 0x00, 0x00, 0x10, 0x00, 0x00, 0x00, 0x96, 0xff, 0xff, 0xff,
  0x00, 0x00, 0x00, 0x01, 0x14, 0x00, 0x00, 0x00, 0x30, 0x00, 0x00, 0x00,
  0x03, 0x00, 0x00, 0x00, 0x00, 0x00, 0x00, 0x09, 0x44, 0x00, 0x00, 0x00,
  0xe4, 0xfe, 0xff, 0xff, 0x08, 0x00, 0x00, 0x00, 0x10, 0x00, 0x00, 0x00,
  0x01, 0x00, 0x00, 0x00, 0x00, 0x00, 0x00, 0x00, 0x00, 0x00, 0x00, 0x00,
  0x01, 0x00, 0x00, 0x00, 0x74, 0x63, 0xa4, 0x3b, 0x1b, 0x00, 0x00, 0x00,
  0x73, 0x65, 0x71, 0x75, 0x65, 0x6e, 0x74, 0x69, 0x61, 0x6c, 0x5f, 0x31,
  0x2f, 0x64, 0x65, 0x6e, 0x73, 0x65, 0x5f, 0x35, 0x2f, 0x4d, 0x61, 0x74,
  0x4d, 0x75, 0x6c, 0x00, 0x02, 0x00, 0x00, 0x00, 0x01, 0x00, 0x00, 0x00,
  0x10, 0x00, 0x00, 0x00, 0x00, 0x00, 0x16, 0x00, 0x1c, 0x00, 0x18, 0x00,
  0x17, 0x00, 0x10, 0x00, 0x0c, 0x00, 0x08, 0x00, 0x00, 0x00, 0x00, 0x00,
  0x00, 0x00, 0x07, 0x00, 0x16, 0x00, 0x00, 0x00, 0x00, 0x00, 0x00, 0x01,
  0x14, 0x00, 0x00, 0x00, 0x30, 0x00, 0x00, 0x00, 0x02, 0x00, 0x00, 0x00,
  0x00, 0x00, 0x00, 0x02, 0x54, 0x00, 0x00, 0x00, 0x64, 0xff, 0xff, 0xff,
  0x08, 0x00, 0x00, 0x00, 0x10, 0x00, 0x00, 0x00, 0x01, 0x00, 0x00, 0x00,
  0x00, 0x00, 0x00, 0x00, 0x00, 0x00, 0x00, 0x00, 0x01, 0x00, 0x00, 0x00,
  0xd8, 0x20, 0x73, 0x38, 0x2b, 0x00, 0x00, 0x00, 0x73, 0x65, 0x71, 0x75,
  0x65, 0x6e, 0x74, 0x69, 0x61, 0x6c, 0x5f, 0x31, 0x2f, 0x64, 0x65, 0x6e,
  0x73, 0x65, 0x5f, 0x35, 0x2f, 0x42, 0x69, 0x61, 0x73, 0x41, 0x64, 0x64,
  0x2f, 0x52, 0x65, 0x61, 0x64, 0x56, 0x61, 0x72, 0x69, 0x61, 0x62, 0x6c,
  0x65, 0x4f, 0x70, 0x00, 0x01, 0x00, 0x00, 0x00, 0x01, 0x00, 0x00, 0x00,
  0x00, 0x00, 0x16, 0x00, 0x20, 0x00, 0x1c, 0x00, 0x1b, 0x00, 0x14, 0x00,
  0x10, 0x00, 0x0c, 0x00, 0x00, 0x00, 0x00, 0x00, 0x08, 0x00, 0x07, 0x00,
  0x16, 0x00, 0x00, 0x00, 0x00, 0x00, 0x00, 0x01, 0x18, 0x00, 0x00, 0x00,
  0x2c, 0x00, 0x00, 0x00, 0x4c, 0x00, 0x00, 0x00, 0x01, 0x00, 0x00, 0x00,
  0x00, 0x00, 0x00, 0x09, 0x64, 0x00, 0x00, 0x00, 0x02, 0x00, 0x00, 0x00,
  0xff, 0xff, 0xff, 0xff, 0x01, 0x00, 0x00, 0x00, 0x0c, 0x00, 0x0c, 0x00,
  0x00, 0x00, 0x00, 0x00, 0x08, 0x00, 0x04, 0x00, 0x0c, 0x00, 0x00, 0x00,
  0x08, 0x00, 0x00, 0x00, 0x14, 0x00, 0x00, 0x00, 0x01, 0x00, 0x00, 0x00,
  0x80, 0xff, 0xff, 0xff, 0xff, 0xff, 0xff, 0xff, 0x00, 0x00, 0x00, 0x00,
  0x01, 0x00, 0x00, 0x00, 0x49, 0xd3, 0xc9, 0x3c, 0x1f, 0x00, 0x00, 0x00,
  0x73, 0x65, 0x72, 0x76, 0x69, 0x6e, 0x67, 0x5f, 0x64, 0x65, 0x66, 0x61,
  0x75, 0x6c, 0x74, 0x5f, 0x64, 0x65, 0x6e, 0x73, 0x65, 0x5f, 0x32, 0x5f,
  0x69, 0x6e, 0x70, 0x75, 0x74, 0x3a, 0x30, 0x00, 0x02, 0x00, 0x00, 0x00,
  0x01, 0x00, 0x00, 0x00, 0x01, 0x00, 0x00, 0x00, 0x01, 0x00, 0x00, 0x00,
  0x10, 0x00, 0x00, 0x00, 0x0c, 0x00, 0x10, 0x00, 0x0f, 0x00, 0x00, 0x00,
  0x08, 0x00, 0x04, 0x00, 0x0c, 0x00, 0x00, 0x00, 0x09, 0x00, 0x00, 0x00,
  0x04, 0x00, 0x00, 0x00, 0x00, 0x00, 0x00, 0x09
};
unsigned int g_model_len = 5864;
